{
  "version": "1.0",
  "truncation": null,
  "padding": null,
  "added_tokens": [
    {
      "id": 736,
      "content": "<|user|>",
      "single_word": false,
      "lstrip": false,
      "rstrip": false,
      "normalized": false,
      "special": true
    },
    {
      "id": 737,
      "content": "<|assistant|>",
      "single_word": false,
      "lstrip": false,
      "rstrip": false,
      "normalized": false,
      "special": true
    },
    {
      "id": 738,
      "content": "<|end|>",
      "single_word": false,
      "lstrip": false,
      "rstrip": false,
      "normalized": false,
      "special": true
    }
  ],
  "normalizer": null,
  "pre_tokenizer": {
    "type": "ByteLevel",
    "add_prefix_space": false,
    "trim_offsets": true,
    "use_regex": true
  },
  "post_processor": null,
  "decoder": {
    "type": "ByteLevel",
    "add_prefix_space": false,
    "trim_offsets": true,
    "use_regex": true
  },
  "model": {
    "type": "BPE",
    "dropout": null,
    "unk_token": null,
    "continuing_subword_prefix": null,
    "end_of_word_suffix": null,
    "fuse_unk": false,
    "byte_fallback": false,
    "vocab": {
      "Ā": 0,
      "ā": 1,
      "Ă": 2,
      "ă": 3,
      "Ą": 4,
      "ą": 5,
      "Ć": 6,
      "ć": 7,
      "Ĉ": 8,
      "ĉ": 9,
      "Ċ": 10,
      "ċ": 11,
      "Č": 12,
      "č": 13,
      "Ď": 14,
      "ď": 15,
      "Đ": 16,
      "đ": 17,
      "Ē": 18,
      "ē": 19,
      "Ĕ": 20,
      "ĕ": 21,
      "Ė": 22,
      "ė": 23,
      "Ę": 24,
      "ę": 25,
      "Ě": 26,
      "ě": 27,
      "Ĝ": 28,
      "ĝ": 29,
      "Ğ": 30,
      "ğ": 31,
      "Ġ": 32,
      "!": 33,
      "\"": 34,
      "#": 35,
      "$": 36,
      "%": 37,
      "&": 38,
      "'": 39,
      "(": 40,
      ")": 41,
      "*": 42,
      "+": 43,
      ",": 44,
      "-": 45,
      ".": 46,
      "/": 47,
      "0": 48,
      "1": 49,
      "2": 50,
      "3": 51,
      "4": 52,
      "5": 53,
      "6": 54,
      "7": 55,
      "8": 56,
      "9": 57,
      ":": 58,
      ";": 59,
      "<": 60,
      "=": 61,
      ">": 62,
      "?": 63,
      "@": 64,
      "A": 65,
      "B": 66,
      "C": 67,
      "D": 68,
      "E": 69,
      "F": 70,
      "G": 71,
      "H": 72,
      "I": 73,
      "J": 74,
      "K": 75,
      "L": 76,
      "M": 77,
      "N": 78,
      "O": 79,
      "P": 80,
      "Q": 81,
      "R": 82,
      "S": 83,
      "T": 84,
      "U": 85,
      "V": 86,
      "W": 87,
      "X": 88,
      "Y": 89,
      "Z": 90,
      "[": 91,
      "\\": 92,
      "]": 93,
      "^": 94,
      "_": 95,
      "`": 96,
      "a": 97,
      "b": 98,
      "c": 99,
      "d": 100,
      "e": 101,
      "f": 102,
      "g": 103,
      "h": 104,
      "i": 105,
      "j": 106,
      "k": 107,
      "l": 108,
      "m": 109,
      "n": 110,
      "o": 111,
      "p": 112,
      "q": 113,
      "r": 114,
      "s": 115,
      "t": 116,
      "u": 117,
      "v": 118,
      "w": 119,
      "x": 120,
      "y": 121,
      "z": 122,
      "{": 123,
      "|": 124,
      "}": 125,
      "~": 126,
      "ġ": 127,
      "Ģ": 128,
      "ģ": 129,
      "Ĥ": 130,
      "ĥ": 131,
      "Ħ": 132,
      "ħ": 133,
      "Ĩ": 134,
      "ĩ": 135,
      "Ī": 136,
      "ī": 137,
      "Ĭ": 138,
      "ĭ": 139,
      "Į": 140,
      "į": 141,
      "İ": 142,
      "ı": 143,
      "Ĳ": 144,
      "ĳ": 145,
      "Ĵ": 146,
      "ĵ": 147,
      "Ķ": 148,
      "ķ": 149,
      "ĸ": 150,
      "Ĺ": 151,
      "ĺ": 152,
      "Ļ": 153,
      "ļ": 154,
      "Ľ": 155,
      "ľ": 156,
      "Ŀ": 157,
      "ŀ": 158,
      "Ł": 159,
      "ł": 160,
      "¡": 161,
      "¢": 162,
      "£": 163,
      "¤": 164,
      "¥": 165,
      "¦": 166,
      "§": 167,
      "¨": 168,
      "©": 169,
      "ª": 170,
      "«": 171,
      "¬": 172,
      "Ń": 173,
      "®": 174,
      "¯": 175,
      "°": 176,
      "±": 177,
      "²": 178,
      "³": 179,
      "´": 180,
      "µ": 181,
      "¶": 182,
      "·": 183,
      "¸": 184,
      "¹": 185,
      "º": 186,
      "»": 187,
      "¼": 188,
      "½": 189,
      "¾": 190,
      "¿": 191,
      "À": 192,
      "Á": 193,
      "Â": 194,
      "Ã": 195,
      "Ä": 196,
      "Å": 197,
      "Æ": 198,
      "Ç": 199,
      "È": 200,
      "É": 201,
      "Ê": 202,
      "Ë": 203,
      "Ì": 204,
      "Í": 205,
      "Î": 206,
      "Ï": 207,
      "Ð": 208,
      "Ñ": 209,
      "Ò": 210,
      "Ó": 211,
      "Ô": 212,
      "Õ": 213,
      "Ö": 214,
      "×": 215,
      "Ø": 216,
      "Ù": 217,
      "Ú": 218,
      "Û": 219,
      "Ü": 220,
      "Ý": 221,
      "Þ": 222,
      "ß": 223,
      "à": 224,
      "á": 225,
      "â": 226,
      "ã": 227,
      "ä": 228,
      "å": 229,
      "æ": 230,
      "ç": 231,
      "è": 232,
      "é": 233,
      "ê": 234,
      "ë": 235,
      "ì": 236,
      "í": 237,
      "î": 238,
      "ï": 239,
      "ð": 240,
      "ñ": 241,
      "ò": 242,
      "ó": 243,
      "ô": 244,
      "õ": 245,
      "ö": 246,
      "÷": 247,
      "ø": 248,
      "ù": 249,
      "ú": 250,
      "û": 251,
      "ü": 252,
      "ý": 253,
      "þ": 254,
      "ÿ": 255,
      "he": 256,
      "Ġt": 257,
      "Ġc": 258,
      "ea": 259,
      "Ġthe": 260,
      "Ġcl": 261,
      "Ġclea": 262,
      "The": 263,
      "ly": 264,
      "nly": 265,
      "Ġcleanly": 266,
      "Ġr": 267,
      "es": 268,
      "Ġre": 269,
      "or": 270,
      "in": 271,
      "er": 272,
      "Ġs": 273,
      "ar": 274,
      "at": 275,
      "en": 276,
      "an": 277,
      "ent": 278,
      "st": 279,
      "Ġd": 280,
      "est": 281,
      "lo": 282,
      "pe": 283,
      "Ġan": 284,
      "Ġand": 285,
      "che": 286,
      "Ġin": 287,
      "qu": 288,
      "por": 289,
      "Ġrepor": 290,
      "Ġreport": 291,
      "ates": 292,
      "on": 293,
      "gi": 294,
      "Ġregi": 295,
      "ment": 296,
      "ro": 297,
      "le": 298,
      "op": 299,
      "gh": 300,
      "hro": 301,
      "pu": 302,
      "ugh": 303,
      "Ġop": 304,
      "Ġthro": 305,
      "put": 306,
      "ughput": 307,
      "Ġthroughput": 308,
      "du": 309,
      "Ġsche": 310,
      "dule": 311,
      "Ġschedule": 312,
      "Ġp": 313,
      "Ġde": 314,
      "vent": 315,
      "ory": 316,
      "Ġinvent": 317,
      "Ġinventory": 318,
      "har": 319,
      "ck": 320,
      "ry": 321,
      "stry": 322,
      "Ġregistry": 323,
      "erat": 324,
      "Ġoperat": 325,
      "Ġoperator": 326,
      "Ġm": 327,
      "ing": 328,
      "plo": 329,
      "yment": 330,
      "Ġdeplo": 331,
      "Ġdeployment": 332,
      "Ġl": 333,
      "ust": 334,
      "Ġclust": 335,
      "Ġcluster": 336,
      "Ġrequ": 337,
      "Ġrequest": 338,
      "as": 339,
      "bo": 340,
      "hbo": 341,
      "ard": 342,
      "Ġdas": 343,
      "hboard": 344,
      "Ġdashboard": 345,
      "fest": 346,
      "ifest": 347,
      "anifest": 348,
      "Ġmanifest": 349,
      "the": 350,
      "wea": 351,
      "Ġwea": 352,
      "ther": 353,
      "Ġweather": 354,
      "ion": 355,
      "sion": 356,
      "ession": 357,
      "Ġsession": 358,
      "bor": 359,
      "ipe": 360,
      "lin": 361,
      "Ġhar": 362,
      "Ġpipe": 363,
      "line": 364,
      "Ġharbor": 365,
      "Ġpipeline": 366,
      "cy": 367,
      "ic": 368,
      "oin": 369,
      "poin": 370,
      "heck": 371,
      "Ġcheck": 372,
      "aten": 373,
      "Ġlaten": 374,
      "point": 375,
      "Ġcheckpoint": 376,
      "Ġlatency": 377,
      "ead": 378,
      "vic": 379,
      "ervic": 380,
      "Ġservic": 381,
      "Ġservice": 382,
      "Ġlo": 383,
      "Ġread": 384,
      "Ev": 385,
      "hing": 386,
      "ks": 387,
      "oks": 388,
      "thing": 389,
      "ything": 390,
      "Ġar": 391,
      "Ġclear": 392,
      "erything": 393,
      "Ġlooks": 394,
      "Ġready": 395,
      "Everything": 396,
      "Ġare": 397,
      "eu": 398,
      "der": 399,
      "ache": 400,
      "Ġst": 401,
      "nder": 402,
      "Ġrender": 403,
      "li": 404,
      "Ġcache": 405,
      "ot": 406,
      "Ġrot": 407,
      "Ġrotates": 408,
      "Ġrenders": 409,
      "ali": 410,
      "dates": 411,
      "ns": 412,
      "rns": 413,
      "tu": 414,
      "vali": 415,
      "Ġvali": 416,
      "Ġretu": 417,
      "Ġvalidates": 418,
      "Ġreturns": 419,
      "ct": 420,
      "iz": 421,
      "mm": 422,
      "spe": 423,
      "umm": 424,
      "Ġqu": 425,
      "Ġsumm": 426,
      "ariz": 427,
      "Ġinspe": 428,
      "Ġreports": 429,
      "eues": 430,
      "cts": 431,
      "Ġqueues": 432,
      "Ġsummariz": 433,
      "Ġinspects": 434,
      "Ġsummarizes": 435,
      "ms": 436,
      "rea": 437,
      "Ġstrea": 438,
      "Ġstreams": 439,
      "Ġcaches": 440,
      "\":": 441,
      "Ġ\"": 442,
      "{\"": 443,
      "Ġf": 444,
      "me": 445,
      "\",": 446,
      "\"}": 447,
      "ay": 448,
      "ame": 449,
      "co": 450,
      "day": 451,
      "gu": 452,
      "name": 453,
      "oday": 454,
      "sco": 455,
      "Ġ{\"": 456,
      "Ġtoday": 457,
      "argu": 458,
      "Ġregion": 459,
      "ments": 460,
      "Ġfor": 461,
      "\"}}": 462,
      "scope": 463,
      "arguments": 464,
      "et": 465,
      "us": 466,
      "ch": 467,
      "get": 468,
      "cor": 469,
      "fi": 470,
      "ag": 471,
      "dg": 472,
      "edg": 473,
      "west": 474,
      "east": 475,
      "rod": 476,
      "aging": 477,
      "edge": 478,
      "ab": 479,
      "be": 480,
      "cr": 481,
      "gs": 482,
      "ho": 483,
      "ick": 484,
      "ibe": 485,
      "les": 486,
      "ric": 487,
      "rch": 488,
      "Ġget": 489,
      "earch": 490,
      "escr": 491,
      "atus": 492,
      "onfi": 493,
      "hart": 494,
      "etch": 495,
      "cord": 496,
      "able": 497,
      "host": 498,
      "icket": 499,
      "rics": 500,
      "escribe": 501,
      "onfig": 502,
      "cache": 503,
      "de": 504,
      "prod": 505,
      "Ġeu": 506,
      "Ġus": 507,
      "Ġedge": 508,
      "Ġcor": 509,
      "staging": 510,
      "Ġprod": 511,
      "Ġdev": 512,
      "Ġstaging": 513,
      "core": 514,
      "dev": 515,
      "Ġcore": 516,
      "chart": 517,
      "config": 518,
      "describe": 519,
      "ecord": 520,
      "fetch": 521,
      "ist": 522,
      "iles": 523,
      "ping": 524,
      "ren": 525,
      "read": 526,
      "record": 527,
      "search": 528,
      "table": 529,
      "ticket": 530,
      "trics": 531,
      "Ġhost": 532,
      "Ġtable": 533,
      "Ġticket": 534,
      "Ġchart": 535,
      "Ġconfig": 536,
      "Ġrecord": 537,
      "Ġsearch": 538,
      "status": 539,
      "Ġdescribe": 540,
      "logs": 541,
      "open": 542,
      "Ġopen": 543,
      "Ġping": 544,
      "Ġmet": 545,
      "Ġlist": 546,
      "Ġlogs": 547,
      "Ġstatus": 548,
      "list": 549,
      "Ġfetch": 550,
      "Ġfiles": 551,
      "metrics": 552,
      "files": 553,
      "render": 554,
      "Ġmetrics": 555,
      "F/": 556,
      "Zq": 557,
      "LZq": 558,
      "green": 559,
      "yK": 560,
      "Xq": 561,
      "dXq": 562,
      "cache1": 563,
      "xo": 564,
      "9R": 565,
      "B9R": 566,
      "healthy": 567,
      "Hp": 568,
      "Tb": 569,
      "cTb": 570,
      "hed,Ġ": 571,
      "Ds": 572,
      "7q": 573,
      "K7q": 574,
      "ready": 575,
      "?k": 576,
      "l?k": 577,
      "portĠ": 578,
      "ex": 579,
      "/ex": 580,
      "csĠex": 581,
      "rF": 582,
      "ra": 583,
      "Xra": 584,
      "aches": 585,
      "i4": 586,
      "tU": 587,
      "WtU": 588,
      "Ġpend": 589,
      "8F": 590,
      "3q": 591,
      "43q": 592,
      "edĠwa": 593,
      "bg": 594,
      "8N": 595,
      "X8N": 596,
      "dashb": 597,
      "yi": 598,
      "wy": 599,
      "cwy": 600,
      "active": 601,
      ":/": 602,
      "c2": 603,
      "/c2": 604,
      "sĠnom": 605,
      "2E": 606,
      "6B": 607,
      "W6B": 608,
      "ok": 609,
      "j+": 610,
      "TJ": 611,
      "LTJ": 612,
      "rm,Ġe": 613,
      "la": 614,
      ".n": 615,
      "y.n": 616,
      "metri": 617,
      "nd": 618,
      "re": 619,
      "-re": 620,
      "prodĠ": 621,
      "0O": 622,
      "pq": 623,
      "Vpq": 624,
      "valid": 625,
      "r?": 626,
      "ad": 627,
      "pad": 628,
      "alert": 629,
      "ht": 630,
      "ps": 631,
      "tps": 632,
      "ystem": 633,
      "p8": 634,
      "Uj": 635,
      "sUj": 636,
      "r.ĠEv": 637,
      "to": 638,
      "eW": 639,
      "xeW": 640,
      "theĠc": 641,
      "9D": 642,
      "XB": 643,
      "6XB": 644,
      "eryĠr": 645,
      "fS": 646,
      "Q=": 647,
      "xQ=": 648,
      "Ġrepo": 649,
      "SJ": 650,
      "F+": 651,
      "tF+": 652,
      "stable": 653,
      "ey": 654,
      "Sd": 655,
      "=Sd": 656,
      "finis": 657,
      "nS": 658,
      "2L": 659,
      "z2L": 660,
      "veryĠ": 661,
      "ZD": 662,
      "8v": 663,
      "b8v": 664,
      "ingĠa": 665,
      "lf": 666,
      "W1": 667,
      "6W1": 668,
      "fresh": 669,
      "8j": 670,
      "T8": 671,
      "uT8": 672,
      "sĠhou": 673,
      "Gi": 674,
      "tw": 675,
      "9tw": 676,
      "primed": 677,
      "ou": 678,
      "bou": 679,
      "ĠtheĠ": 680,
      "E2": 681,
      "Gy": 682,
      "TGy": 683,
      "clear": 684,
      "u8": 685,
      "pj": 686,
      "qpj": 687,
      "tĠthi": 688,
      "3m": 689,
      "hQ": 690,
      "+hQ": 691,
      "oardĠ": 692,
      "3Q": 693,
      "==": 694,
      "Ġgree": 695,
      "=S": 696,
      "x4": 697,
      "Lx4": 698,
      "sĠare": 699,
      "te": 700,
      "ste": 701,
      "dĠnoĠ": 702,
      "jn": 703,
      "y3": 704,
      "ny3": 705,
      "synced": 706,
      "NC": 707,
      "yJ": 708,
      "myJ": 709,
      "egion": 710,
      "cu": 711,
      "lĠ": 712,
      "rlĠ": 713,
      "AllĠs": 714,
      "oa": 715,
      "mY": 716,
      "BmY": 717,
      "Ġstay": 718,
      ".c": 719,
      "ind": 720,
      "inal:": 721,
      "nD": 722,
      "fe": 723,
      "5fe": 724,
      "warm": 725,
      "Gl": 726,
      "/F": 727,
      "0/F": 728,
      "online": 729,
      "yv": 730,
      "jD": 731,
      "hjD": 732,
      "reads": 733,
      "/re": 734,
      "n,Ġan": 735
    },
    "merges": [
      "h e",
      "Ġ t",
      "Ġ c",
      "e a",
      "Ġt he",
      "Ġc l",
      "Ġcl ea",
      "T he",
      "l y",
      "n ly",
      "Ġclea nly",
      "Ġ r",
      "e s",
      "Ġr e",
      "o r",
      "i n",
      "e r",
      "Ġ s",
      "a r",
      "a t",
      "e n",
      "a n",
      "en t",
      "s t",
      "Ġ d",
      "es t",
      "l o",
      "p e",
      "Ġ an",
      "Ġan d",
      "c he",
      "Ġ in",
      "q u",
      "p or",
      "Ġre por",
      "Ġrepor t",
      "at es",
      "o n",
      "g i",
      "Ġre gi",
      "m ent",
      "r o",
      "l e",
      "o p",
      "g h",
      "h ro",
      "p u",
      "u gh",
      "Ġ op",
      "Ġt hro",
      "pu t",
      "ugh put",
      "Ġthro ughput",
      "d u",
      "Ġs che",
      "du le",
      "Ġsche dule",
      "Ġ p",
      "Ġd e",
      "v ent",
      "or y",
      "Ġin vent",
      "Ġinvent ory",
      "h ar",
      "c k",
      "r y",
      "st ry",
      "Ġregi stry",
      "er at",
      "Ġop erat",
      "Ġoperat or",
      "Ġ m",
      "in g",
      "p lo",
      "y ment",
      "Ġde plo",
      "Ġdeplo yment",
      "Ġ l",
      "u st",
      "Ġcl ust",
      "Ġclust er",
      "Ġre qu",
      "Ġrequ est",
      "a s",
      "b o",
      "h bo",
      "ar d",
      "Ġd as",
      "hbo ard",
      "Ġdas hboard",
      "f est",
      "i fest",
      "an ifest",
      "Ġm anifest",
      "t he",
      "w ea",
      "Ġ wea",
      "the r",
      "Ġwea ther",
      "i on",
      "s ion",
      "es sion",
      "Ġs ession",
      "b or",
      "i pe",
      "l in",
      "Ġ har",
      "Ġp ipe",
      "lin e",
      "Ġhar bor",
      "Ġpipe line",
      "c y",
      "i c",
      "o in",
      "p oin",
      "he ck",
      "Ġc heck",
      "at en",
      "Ġl aten",
      "poin t",
      "Ġcheck point",
      "Ġlaten cy",
      "ea d",
      "v ic",
      "er vic",
      "Ġs ervic",
      "Ġservic e",
      "Ġ lo",
      "Ġr ead",
      "E v",
      "h ing",
      "k s",
      "o ks",
      "t hing",
      "y thing",
      "Ġ ar",
      "Ġclea r",
      "er ything",
      "Ġlo oks",
      "Ġread y",
      "Ev erything",
      "Ġar e",
      "e u",
      "d er",
      "a che",
      "Ġs t",
      "n der",
      "Ġre nder",
      "l i",
      "Ġc ache",
      "o t",
      "Ġr ot",
      "Ġrot ates",
      "Ġrender s",
      "a li",
      "d ates",
      "n s",
      "r ns",
      "t u",
      "v ali",
      "Ġ vali",
      "Ġre tu",
      "Ġvali dates",
      "Ġretu rns",
      "c t",
      "i z",
      "m m",
      "s pe",
      "u mm",
      "Ġ qu",
      "Ġs umm",
      "ar iz",
      "Ġin spe",
      "Ġreport s",
      "eu es",
      "ct s",
      "Ġqu eues",
      "Ġsumm ariz",
      "Ġinspe cts",
      "Ġsummariz es",
      "m s",
      "r ea",
      "Ġst rea",
      "Ġstrea ms",
      "Ġcache s",
      "\" :",
      "Ġ \"",
      "{ \"",
      "Ġ f",
      "m e",
      "\" ,",
      "\" }",
      "a y",
      "a me",
      "c o",
      "d ay",
      "g u",
      "n ame",
      "o day",
      "s co",
      "Ġ {\"",
      "Ġt oday",
      "ar gu",
      "Ġregi on",
      "ment s",
      "Ġf or",
      "\"} }",
      "sco pe",
      "argu ments",
      "e t",
      "u s",
      "c h",
      "g et",
      "c or",
      "f i",
      "a g",
      "d g",
      "e dg",
      "w est",
      "ea st",
      "ro d",
      "ag ing",
      "edg e",
      "a b",
      "b e",
      "c r",
      "g s",
      "h o",
      "i ck",
      "i be",
      "l es",
      "r ic",
      "r ch",
      "Ġ get",
      "ea rch",
      "es cr",
      "at us",
      "on fi",
      "har t",
      "et ch",
      "cor d",
      "ab le",
      "ho st",
      "ick et",
      "ric s",
      "escr ibe",
      "onfi g",
      "c ache",
      "d e",
      "p rod",
      "Ġ eu",
      "Ġ us",
      "Ġ edge",
      "Ġc or",
      "st aging",
      "Ġp rod",
      "Ġde v",
      "Ġst aging",
      "cor e",
      "de v",
      "Ġcor e",
      "c hart",
      "c onfig",
      "d escribe",
      "e cord",
      "f etch",
      "i st",
      "i les",
      "p ing",
      "r en",
      "r ead",
      "r ecord",
      "s earch",
      "t able",
      "t icket",
      "t rics",
      "Ġ host",
      "Ġt able",
      "Ġt icket",
      "Ġc hart",
      "Ġc onfig",
      "Ġre cord",
      "Ġs earch",
      "st atus",
      "Ġd escribe",
      "lo gs",
      "op en",
      "Ġop en",
      "Ġp ing",
      "Ġm et",
      "Ġl ist",
      "Ġlo gs",
      "Ġst atus",
      "li st",
      "Ġf etch",
      "Ġf iles",
      "me trics",
      "fi les",
      "ren der",
      "Ġmet rics",
      "F /",
      "Z q",
      "L Zq",
      "F/ LZq",
      "y K",
      "X q",
      "d Xq",
      "yK dXq",
      "x o",
      "9 R",
      "B 9R",
      "xo B9R",
      "H p",
      "T b",
      "c Tb",
      "Hp cTb",
      "D s",
      "7 q",
      "K 7q",
      "Ds K7q",
      "? k",
      "l ?k",
      "fi l?k",
      "e x",
      "/ ex",
      "et /ex",
      "r F",
      "r a",
      "X ra",
      "rF Xra",
      "i 4",
      "t U",
      "W tU",
      "i4 WtU",
      "8 F",
      "3 q",
      "4 3q",
      "8F 43q",
      "b g",
      "8 N",
      "X 8N",
      "bg X8N",
      "y i",
      "w y",
      "c wy",
      "yi cwy",
      ": /",
      "c 2",
      "/ c2",
      ":/ /c2",
      "2 E",
      "6 B",
      "W 6B",
      "2E W6B",
      "j +",
      "T J",
      "L TJ",
      "j+ LTJ",
      "l a",
      ". n",
      "y .n",
      "la y.n",
      "n d",
      "r e",
      "- re",
      "nd -re",
      "0 O",
      "p q",
      "V pq",
      "0O Vpq",
      "r ?",
      "a d",
      "p ad",
      "r? pad",
      "h t",
      "p s",
      "t ps",
      "ht tps",
      "p 8",
      "U j",
      "s Uj",
      "p8 sUj",
      "t o",
      "e W",
      "x eW",
      "to xeW",
      "9 D",
      "X B",
      "6 XB",
      "9D 6XB",
      "f S",
      "Q =",
      "x Q=",
      "fS xQ=",
      "S J",
      "F +",
      "t F+",
      "SJ tF+",
      "e y",
      "S d",
      "= Sd",
      "ey =Sd",
      "n S",
      "2 L",
      "z 2L",
      "nS z2L",
      "Z D",
      "8 v",
      "b 8v",
      "ZD b8v",
      "l f",
      "W 1",
      "6 W1",
      "lf 6W1",
      "8 j",
      "T 8",
      "u T8",
      "8j uT8",
      "G i",
      "t w",
      "9 tw",
      "Gi 9tw",
      "o u",
      "b ou",
      "er bou",
      "E 2",
      "G y",
      "T Gy",
      "E2 TGy",
      "u 8",
      "p j",
      "q pj",
      "u8 qpj",
      "3 m",
      "h Q",
      "+ hQ",
      "3m +hQ",
      "3 Q",
      "= =",
      "3Q ==",
      "= S",
      "x 4",
      "L x4",
      "=S Lx4",
      "t e",
      "s te",
      "gi ste",
      "j n",
      "y 3",
      "n y3",
      "jn ny3",
      "N C",
      "y J",
      "m yJ",
      "NC myJ",
      "c u",
      "l Ġ",
      "r lĠ",
      "cu rlĠ",
      "o a",
      "m Y",
      "B mY",
      "oa BmY",
      ". c",
      "i nd",
      ".c ind",
      "n D",
      "f e",
      "5 fe",
      "nD 5fe",
      "G l",
      "/ F",
      "0 /F",
      "Gl 0/F",
      "y v",
      "j D",
      "h jD",
      "yv hjD",
      "/ re",
      "et /re"
    ]
  }
}